{"structure": [1, 6, 6, 6, 6, 6, 6, 2, 1], "file": "Data/1in_sine.txt", "activation": "TanH", "layers": [{"layer_id": 0, "layer_label": "Input", "number_of_neurons": 1, "layer_bias": 0.2253930279236026, "weights": [{"neuron_id": "0", "weights": null}]}, {"layer_id": 1, "layer_label": "Hidden", "number_of_neurons": 6, "layer_bias": 0.18352089030467258, "weights": [{"neuron_id": "0", "weights": [0.09275587343638364]}, {"neuron_id": "1", "weights": [-0.10626509283789265]}, {"neuron_id": "2", "weights": [0.06306520867984342]}, {"neuron_id": "3", "weights": [-0.06560460443949527]}, {"neuron_id": "4", "weights": [-0.18985892850678812]}, {"neuron_id": "5", "weights": [-0.22956372643785256]}]}, {"layer_id": 2, "layer_label": "Hidden", "number_of_neurons": 6, "layer_bias": 0.11018721806722255, "weights": [{"neuron_id": "0", "weights": [-0.2694730610505315, 0.24101433226622052, -0.0814446419715393, -0.18820589097142854, -0.2901771071281377, 0.2682592751924608]}, {"neuron_id": "1", "weights": [-0.010116829547845043, -0.17023233874082838, 0.3020679908356061, -0.02115001720073024, 0.20366915876152958, 0.2065040079257294]}, {"neuron_id": "2", "weights": [-0.24519364926870274, 0.10393562902826209, 0.21625064255602716, -0.14209466144603963, -0.22648572924816862, 0.06853655501082859]}, {"neuron_id": "3", "weights": [0.08257759956157182, -0.2973633462608787, 0.19285164542427916, 0.10805287763432021, 0.28353137774596776, -0.0315261972623435]}, {"neuron_id": "4", "weights": [-0.21707267957720688, -0.0714819376631009, -0.1838826054406607, -0.10442307913814795, -0.1411118233651954, 0.28357393926781455]}, {"neuron_id": "5", "weights": [-0.04050095344273442, -0.2599179396980882, 0.1777494413522622, 0.2767583344342596, 0.2504946877993424, -0.05944992279949833]}]}, {"layer_id": 3, "layer_label": "Hidden", "number_of_neurons": 6, "layer_bias": 0.1975020480404779, "weights": [{"neuron_id": "0", "weights": [-0.009158168395033969, -0.29898403029107085, 0.14119982059360098, 0.25698671662695366, -0.2562761525646941, -0.26208349316847346]}, {"neuron_id": "1", "weights": [0.17623507490528506, -0.11466550130356847, 0.2569293014716126, -0.12897025936424494, 0.22497603785022627, -0.08949529693169897]}, {"neuron_id": "2", "weights": [0.1805911713989398, -0.11262894061788542, -0.21920551061011995, 0.08609841963202104, 0.19794222317086427, 0.17089162390059082]}, {"neuron_id": "3", "weights": [0.15001643792102212, 0.06987345670251291, 0.08706335008823111, 0.29972053773265395, 0.11728588297534373, -0.010431834510412439]}, {"neuron_id": "4", "weights": [-0.06941243903163843, 0.027552454549755783, 0.0943977891356676, 0.11432872582861452, -0.09693240962705946, -0.2552067983780391]}, {"neuron_id": "5", "weights": [0.19520968276420758, -0.06464259600286715, 0.04521615347884201, -0.032616660718606263, -0.2969547122761107, -0.2691245016577655]}]}, {"layer_id": 4, "layer_label": "Hidden", "number_of_neurons": 6, "layer_bias": 0.12677953457670407, "weights": [{"neuron_id": "0", "weights": [0.026791473452271817, -0.29626722937652966, 0.2369931741703687, -0.1389521097976226, 0.22267850921961782, -0.12746342293252447]}, {"neuron_id": "1", "weights": [0.16647570220413482, 0.07962372603484573, -0.04157945732104582, 0.07369745514361634, 0.12315729368973183, 0.11231986889647182]}, {"neuron_id": "2", "weights": [-0.006996725053313385, 0.08551497273494041, 0.1630367966896656, 0.164707845313313, -0.029855157378132005, -0.07498341974814367]}, {"neuron_id": "3", "weights": [-0.06349878591385916, -0.1322894700098325, 0.20281502927074105, -0.28660794071175, 0.16522512730921518, -0.22017064277696088]}, {"neuron_id": "4", "weights": [0.24657532117969339, 0.15253103830148762, -0.16588774231786202, -0.014435013637945913, -0.06169779793579383, 0.026842192664090443]}, {"neuron_id": "5", "weights": [-0.13355143173873393, -0.2870587288545048, 0.017391966228783057, -0.04583690529274359, 0.043439365162710596, -0.018510615612694528]}]}, {"layer_id": 5, "layer_label": "Hidden", "number_of_neurons": 6, "layer_bias": 0.1117653837172587, "weights": [{"neuron_id": "0", "weights": [0.19080347706074613, 0.18871364348218547, -0.15141060528237343, -0.06476913184733635, -0.1725012035570702, -0.30919182497910647]}, {"neuron_id": "1", "weights": [-0.25872555047307455, -0.3113472440174464, 0.039873385589533336, -0.26275848712100636, -0.12415975317841774, -0.010630528562052918]}, {"neuron_id": "2", "weights": [-0.17702206697317607, 0.21941150213750907, -0.06958762534880063, 0.1362441499503353, 0.06853451110606142, -0.05844511821309382]}, {"neuron_id": "3", "weights": [-0.28136986578093, -0.02976420097010511, -0.02161239894107309, 0.03461676082733686, 0.004939998431698329, -0.16136846900388566]}, {"neuron_id": "4", "weights": [-0.07606027197455874, -0.19957502954206566, 0.09149636825065409, 0.04497922718353997, 0.09727171899957462, -0.30515925445563713]}, {"neuron_id": "5", "weights": [0.23204060585146208, -0.21483332209950973, 0.11455126793586073, -0.11795711182529721, -0.07986271703447374, 0.19577604259279952]}]}, {"layer_id": 6, "layer_label": "Hidden", "number_of_neurons": 6, "layer_bias": 0.006956803131657485, "weights": [{"neuron_id": "0", "weights": [-0.07759179300370188, -0.08535456521911697, 0.14702379872974985, -0.22993396691684262, -0.061627697257337605, -0.06685365079330018]}, {"neuron_id": "1", "weights": [-0.1277863511503835, -0.0018239634180661738, 0.15650364458305158, -0.22359416042349836, -0.21508055177531119, 0.005679747966189744]}, {"neuron_id": "2", "weights": [-0.14858822181703482, 0.13572856860707538, 0.08987900612630918, 0.0699654910221973, 0.29087745456571373, 0.15438618683969338]}, {"neuron_id": "3", "weights": [-0.16194235207198698, -0.0560108520368518, 0.26259309880255277, 0.14213135357740891, -0.2512220103722153, 0.22006207456312857]}, {"neuron_id": "4", "weights": [-0.060011564085162165, 0.24489433981058126, -0.10605486802162965, -0.26101990734885633, 0.23889543313591183, -0.047908991573613585]}, {"neuron_id": "5", "weights": [-0.15548981855051755, 0.24255809336308065, -0.259786345586383, -0.24662299326136294, -0.2632744307908632, 0.2742358094059889]}]}, {"layer_id": 7, "layer_label": "Hidden", "number_of_neurons": 2, "layer_bias": 0.18048874170103385, "weights": [{"neuron_id": "0", "weights": [-0.10591126931530691, -0.07185925643455332, 0.008624863220325081, 0.027092887388744286, 0.17587243790749194, -0.10446840486080376]}, {"neuron_id": "1", "weights": [0.28861308389728163, 0.1381440627011123, 0.2689515182738682, 0.07955424929439583, -0.25897616936824136, 0.1432002757960433]}]}, {"layer_id": 8, "layer_label": "Output", "number_of_neurons": 1, "layer_bias": 0.14727841832190416, "weights": [{"neuron_id": "0", "weights": [-0.33273097361992254, -0.5146889300373432]}]}]}